unsigned char stacked_meta_clf_pruned_qat_int8_tflite[] = {
  0x1c, 0x00, 0x00, 0x00, 0x54, 0x46, 0x4c, 0x33, 0x14, 0x00, 0x20, 0x00,
  0x1c, 0x00, 0x18, 0x00, 0x14, 0x00, 0x10, 0x00, 0x0c, 0x00, 0x00, 0x00,
  0x08, 0x00, 0x04, 0x00, 0x14, 0x00, 0x00, 0x00, 0x1c, 0x00, 0x00, 0x00,
  0xac, 0x00, 0x00, 0x00, 0x04, 0x01, 0x00, 0x00, 0xb0, 0x03, 0x00, 0x00,
  0xc0, 0x03, 0x00, 0x00, 0x14, 0x08, 0x00, 0x00, 0x03, 0x00, 0x00, 0x00,
  0x01, 0x00, 0x00, 0x00, 0x10, 0x00, 0x00, 0x00, 0x00, 0x00, 0x0a, 0x00,
  0x10, 0x00, 0x0c, 0x00, 0x08, 0x00, 0x04, 0x00, 0x0a, 0x00, 0x00, 0x00,
  0x0c, 0x00, 0x00, 0x00, 0x1c, 0x00, 0x00, 0x00, 0x54, 0x00, 0x00, 0x00,
  0x0f, 0x00, 0x00, 0x00, 0x73, 0x65, 0x72, 0x76, 0x69, 0x6e, 0x67, 0x5f,
  0x64, 0x65, 0x66, 0x61, 0x75, 0x6c, 0x74, 0x00, 0x01, 0x00, 0x00, 0x00,
  0x04, 0x00, 0x00, 0x00, 0x7c, 0xff, 0xff, 0xff, 0x04, 0x00, 0x00, 0x00,
  0x04, 0x00, 0x00, 0x00, 0x22, 0x00, 0x00, 0x00, 0x71, 0x75, 0x61, 0x6e,
  0x74, 0x5f, 0x71, 0x61, 0x74, 0x31, 0x5f, 0x6d, 0x65, 0x74, 0x61, 0x5f,
  0x73, 0x6f, 0x66, 0x74, 0x6d, 0x61, 0x78, 0x5f, 0x31, 0x37, 0x38, 0x30,
  0x30, 0x33, 0x32, 0x34, 0x33, 0x35, 0x00, 0x00, 0x01, 0x00, 0x00, 0x00,
  0x04, 0x00, 0x00, 0x00, 0x56, 0xfc, 0xff, 0xff, 0x04, 0x00, 0x00, 0x00,
  0x0a, 0x00, 0x00, 0x00, 0x71, 0x61, 0x74, 0x31, 0x5f, 0x69, 0x6e, 0x70,
  0x75, 0x74, 0x00, 0x00, 0x02, 0x00, 0x00, 0x00, 0x34, 0x00, 0x00, 0x00,
  0x04, 0x00, 0x00, 0x00, 0xdc, 0xff, 0xff, 0xff, 0x07, 0x00, 0x00, 0x00,
  0x04, 0x00, 0x00, 0x00, 0x13, 0x00, 0x00, 0x00, 0x43, 0x4f, 0x4e, 0x56,
  0x45, 0x52, 0x53, 0x49, 0x4f, 0x4e, 0x5f, 0x4d, 0x45, 0x54, 0x41, 0x44,
  0x41, 0x54, 0x41, 0x00, 0x08, 0x00, 0x0c, 0x00, 0x08, 0x00, 0x04, 0x00,
  0x08, 0x00, 0x00, 0x00, 0x06, 0x00, 0x00, 0x00, 0x04, 0x00, 0x00, 0x00,
  0x13, 0x00, 0x00, 0x00, 0x6d, 0x69, 0x6e, 0x5f, 0x72, 0x75, 0x6e, 0x74,
  0x69, 0x6d, 0x65, 0x5f, 0x76, 0x65, 0x72, 0x73, 0x69, 0x6f, 0x6e, 0x00,
  0x08, 0x00, 0x00, 0x00, 0xa8, 0x02, 0x00, 0x00, 0xa0, 0x02, 0x00, 0x00,
  0x60, 0x02, 0x00, 0x00, 0xa0, 0x00, 0x00, 0x00, 0x98, 0x00, 0x00, 0x00,
  0x90, 0x00, 0x00, 0x00, 0x70, 0x00, 0x00, 0x00, 0x04, 0x00, 0x00, 0x00,
  0xee, 0xfc, 0xff, 0xff, 0x04, 0x00, 0x00, 0x00, 0x5c, 0x00, 0x00, 0x00,
  0x0c, 0x00, 0x00, 0x00, 0x08, 0x00, 0x0e, 0x00, 0x08, 0x00, 0x04, 0x00,
  0x08, 0x00, 0x00, 0x00, 0x10, 0x00, 0x00, 0x00, 0x2c, 0x00, 0x00, 0x00,
  0x00, 0x00, 0x06, 0x00, 0x08, 0x00, 0x04, 0x00, 0x06, 0x00, 0x00, 0x00,
  0x04, 0x00, 0x00, 0x00, 0x02, 0x00, 0x00, 0x00, 0xeb, 0x03, 0x00, 0x00,
  0xd0, 0x07, 0x00, 0x00, 0x00, 0x00, 0x0a, 0x00, 0x10, 0x00, 0x0c, 0x00,
  0x08, 0x00, 0x04, 0x00, 0x0a, 0x00, 0x00, 0x00, 0x02, 0x00, 0x00, 0x00,
  0x02, 0x00, 0x00, 0x00, 0x04, 0x00, 0x00, 0x00, 0x06, 0x00, 0x00, 0x00,
  0x32, 0x2e, 0x31, 0x35, 0x2e, 0x30, 0x00, 0x00, 0x56, 0xfd, 0xff, 0xff,
  0x04, 0x00, 0x00, 0x00, 0x10, 0x00, 0x00, 0x00, 0x31, 0x2e, 0x31, 0x34,
  0x2e, 0x30, 0x00, 0x00, 0x00, 0x00, 0x00, 0x00, 0x00, 0x00, 0x00, 0x00,
  0x30, 0xfd, 0xff, 0xff, 0x34, 0xfd, 0xff, 0xff, 0x7a, 0xfd, 0xff, 0xff,
  0x04, 0x00, 0x00, 0x00, 0xb0, 0x01, 0x00, 0x00, 0x75, 0xb6, 0x94, 0xae,
  0xa0, 0xa5, 0xaf, 0xa5, 0xf0, 0xb4, 0x8b, 0xce, 0x11, 0x98, 0xb5, 0xb4,
  0xd1, 0xcb, 0xf2, 0xce, 0xf2, 0xc9, 0xab, 0x93, 0x2a, 0xc3, 0x8a, 0xe5,
  0x97, 0xa2, 0xef, 0x86, 0xd0, 0xfb, 0xab, 0xcd, 0xf7, 0x4f, 0xe2, 0xd6,
  0xfd, 0xb2, 0xd0, 0xfb, 0xf7, 0xa0, 0xba, 0xe7, 0xf3, 0x45, 0xdb, 0xea,
  0xd9, 0xd7, 0xa9, 0xde, 0xaf, 0x98, 0xe6, 0xb6, 0xc6, 0x6a, 0xe2, 0xd1,
  0xfc, 0xed, 0x85, 0xe9, 0xc2, 0xd4, 0xd4, 0xa5, 0xdf, 0xaa, 0x0f, 0xf9,
  0xad, 0xa7, 0xa2, 0xf1, 0xf0, 0xe8, 0xc7, 0xb7, 0x97, 0xd0, 0x5b, 0xfb,
  0xb5, 0xa2, 0xb7, 0xed, 0xc6, 0xd2, 0x9e, 0xa0, 0xe3, 0x8a, 0x4f, 0xd0,
  0xa9, 0xb9, 0xa0, 0xdc, 0xbb, 0xbe, 0xf6, 0xd3, 0xe2, 0x96, 0x94, 0x69,
  0x83, 0xed, 0x95, 0xf8, 0xf4, 0xda, 0x8b, 0xe2, 0xd0, 0x93, 0xdd, 0x2c,
  0xf3, 0xb9, 0xa9, 0xe5, 0xb9, 0x8d, 0x90, 0xbd, 0x8a, 0xc2, 0xbf, 0x4c,
  0xc1, 0x82, 0x8e, 0xbe, 0xa4, 0xf6, 0xb4, 0xe3, 0x84, 0xaa, 0xf7, 0xe8,
  0x40, 0xad, 0x81, 0xda, 0x04, 0x92, 0xaf, 0xb3, 0xde, 0xe0, 0xcb, 0xa1,
  0x5f, 0xee, 0xce, 0x96, 0xf6, 0xb2, 0xec, 0xb3, 0xe3, 0xd1, 0x99, 0x91,
  0x07, 0xab, 0x96, 0x9a, 0xc8, 0xbc, 0xa6, 0xcc, 0xa1, 0xcc, 0x96, 0xa9,
  0xab, 0x40, 0xfb, 0xdf, 0xd2, 0x86, 0xbc, 0xc8, 0xbf, 0x96, 0xf9, 0x98,
  0xfa, 0x6a, 0xe3, 0xdc, 0xbc, 0xfc, 0xb0, 0xe1, 0x9e, 0x9e, 0xfc, 0xa2,
  0xa2, 0x08, 0x9f, 0xd2, 0x97, 0xd0, 0xd2, 0xcc, 0x09, 0xb6, 0xb1, 0x85,
  0xa6, 0xaf, 0x16, 0xac, 0xc1, 0xa9, 0xdc, 0xe0, 0xc3, 0xca, 0x8d, 0xd9,
  0xea, 0xc8, 0x3e, 0xf3, 0xfb, 0x97, 0x90, 0xdd, 0x81, 0xf0, 0xcc, 0x99,
  0xd6, 0xe4, 0x22, 0xd1, 0xd5, 0xde, 0xbf, 0xeb, 0xac, 0x90, 0xd9, 0x94,
  0xef, 0x94, 0xd2, 0x15, 0xea, 0x88, 0xa2, 0xc7, 0xcc, 0xf3, 0xa8, 0x93,
  0x85, 0xdb, 0xdc, 0x40, 0xe9, 0x8a, 0xd9, 0xd7, 0x95, 0xba, 0xd1, 0xb1,
  0x9d, 0xd4, 0x8d, 0x7b, 0x00, 0xb5, 0xa9, 0xfb, 0xa6, 0xe3, 0xce, 0x9b,
  0xe7, 0xa4, 0x98, 0x9f, 0x60, 0x8a, 0xbc, 0x91, 0xe9, 0xa2, 0xf7, 0xfa,
  0xd5, 0xc1, 0x9a, 0xbd, 0x73, 0xdc, 0x91, 0xdd, 0xf5, 0xa2, 0xbc, 0xb1,
  0xde, 0xf8, 0xf2, 0xf4, 0x77, 0xf3, 0x96, 0xac, 0xe7, 0x86, 0x88, 0xe1,
  0xd9, 0xc4, 0xd9, 0xf1, 0xf8, 0x23, 0xc7, 0xe4, 0xab, 0x9c, 0xc5, 0xf7,
  0x90, 0x9b, 0xdc, 0xcf, 0xd8, 0x54, 0xf7, 0xcd, 0xa9, 0x8d, 0x96, 0xa3,
  0xb4, 0xb2, 0xab, 0x94, 0xde, 0x5a, 0xdb, 0x9d, 0x96, 0xce, 0x98, 0x8e,
  0xa3, 0xd6, 0xf7, 0xf8, 0xee, 0x90, 0x65, 0xf5, 0xe8, 0xf0, 0x88, 0xb0,
  0xf3, 0xa0, 0xf5, 0xc6, 0x9a, 0x8d, 0x19, 0xd2, 0xe3, 0xc9, 0xcd, 0xe9,
  0xbe, 0x81, 0xb9, 0xb9, 0xb6, 0xe4, 0x6f, 0xce, 0xd5, 0xd3, 0x89, 0xed,
  0xeb, 0xab, 0xaf, 0xfc, 0xbe, 0x95, 0xb8, 0x43, 0xd0, 0xbe, 0xf5, 0xc6,
  0xd4, 0x87, 0xc7, 0xd6, 0x9f, 0xbe, 0xc7, 0x06, 0xd2, 0xdc, 0xda, 0xc8,
  0xdf, 0xeb, 0x96, 0xf6, 0x9c, 0xf8, 0xc1, 0x59, 0x36, 0xff, 0xff, 0xff,
  0x04, 0x00, 0x00, 0x00, 0x30, 0x00, 0x00, 0x00, 0x4c, 0x30, 0x00, 0x00,
  0x61, 0xf4, 0xff, 0xff, 0x7c, 0x13, 0x00, 0x00, 0xd2, 0x24, 0x00, 0x00,
  0x91, 0x00, 0x00, 0x00, 0x9d, 0xed, 0xff, 0xff, 0xb6, 0xec, 0xff, 0xff,
  0x23, 0x15, 0x00, 0x00, 0x64, 0xf9, 0xff, 0xff, 0xde, 0x06, 0x00, 0x00,
  0x56, 0x02, 0x00, 0x00, 0x7d, 0x97, 0xff, 0xff, 0x30, 0xff, 0xff, 0xff,
  0x34, 0xff, 0xff, 0xff, 0x0f, 0x00, 0x00, 0x00, 0x4d, 0x4c, 0x49, 0x52,
  0x20, 0x43, 0x6f, 0x6e, 0x76, 0x65, 0x72, 0x74, 0x65, 0x64, 0x2e, 0x00,
  0x01, 0x00, 0x00, 0x00, 0x14, 0x00, 0x00, 0x00, 0x00, 0x00, 0x0e, 0x00,
  0x18, 0x00, 0x14, 0x00, 0x10, 0x00, 0x0c, 0x00, 0x08, 0x00, 0x04, 0x00,
  0x0e, 0x00, 0x00, 0x00, 0x14, 0x00, 0x00, 0x00, 0x1c, 0x00, 0x00, 0x00,
  0xb0, 0x00, 0x00, 0x00, 0xb4, 0x00, 0x00, 0x00, 0xb8, 0x00, 0x00, 0x00,
  0x04, 0x00, 0x00, 0x00, 0x6d, 0x61, 0x69, 0x6e, 0x00, 0x00, 0x00, 0x00,
  0x02, 0x00, 0x00, 0x00, 0x60, 0x00, 0x00, 0x00, 0x14, 0x00, 0x00, 0x00,
  0x00, 0x00, 0x0e, 0x00, 0x1a, 0x00, 0x14, 0x00, 0x10, 0x00, 0x0c, 0x00,
  0x0b, 0x00, 0x04, 0x00, 0x0e, 0x00, 0x00, 0x00, 0x1c, 0x00, 0x00, 0x00,
  0x00, 0x00, 0x00, 0x09, 0x1c, 0x00, 0x00, 0x00, 0x20, 0x00, 0x00, 0x00,
  0x01, 0x00, 0x00, 0x00, 0x00, 0x00, 0x06, 0x00, 0x08, 0x00, 0x04, 0x00,
  0x06, 0x00, 0x00, 0x00, 0x00, 0x00, 0x80, 0x3f, 0x01, 0x00, 0x00, 0x00,
  0x04, 0x00, 0x00, 0x00, 0x01, 0x00, 0x00, 0x00, 0x03, 0x00, 0x00, 0x00,
  0x00, 0x00, 0x0e, 0x00, 0x14, 0x00, 0x00, 0x00, 0x10, 0x00, 0x0c, 0x00,
  0x0b, 0x00, 0x04, 0x00, 0x0e, 0x00, 0x00, 0x00, 0x14, 0x00, 0x00, 0x00,
  0x00, 0x00, 0x00, 0x08, 0x10, 0x00, 0x00, 0x00, 0x14, 0x00, 0x00, 0x00,
  0x04, 0x00, 0x04, 0x00, 0x04, 0x00, 0x00, 0x00, 0x01, 0x00, 0x00, 0x00,
  0x03, 0x00, 0x00, 0x00, 0x03, 0x00, 0x00, 0x00, 0x00, 0x00, 0x00, 0x00,
  0x02, 0x00, 0x00, 0x00, 0x01, 0x00, 0x00, 0x00, 0x01, 0x00, 0x00, 0x00,
  0x04, 0x00, 0x00, 0x00, 0x01, 0x00, 0x00, 0x00, 0x00, 0x00, 0x00, 0x00,
  0x05, 0x00, 0x00, 0x00, 0xe8, 0x02, 0x00, 0x00, 0x40, 0x02, 0x00, 0x00,
  0x4c, 0x01, 0x00, 0x00, 0x80, 0x00, 0x00, 0x00, 0x04, 0x00, 0x00, 0x00,
  0x42, 0xfd, 0xff, 0xff, 0x00, 0x00, 0x00, 0x01, 0x18, 0x00, 0x00, 0x00,
  0x20, 0x00, 0x00, 0x00, 0x3c, 0x00, 0x00, 0x00, 0x05, 0x00, 0x00, 0x00,
  0x00, 0x00, 0x00, 0x09, 0x50, 0x00, 0x00, 0x00, 0x02, 0x00, 0x00, 0x00,
  0xff, 0xff, 0xff, 0xff, 0x0c, 0x00, 0x00, 0x00, 0x2c, 0xfd, 0xff, 0xff,
  0x08, 0x00, 0x00, 0x00, 0x10, 0x00, 0x00, 0x00, 0x01, 0x00, 0x00, 0x00,
  0x80, 0xff, 0xff, 0xff, 0xff, 0xff, 0xff, 0xff, 0x01, 0x00, 0x00, 0x00,
  0x00, 0x00, 0x80, 0x3b, 0x19, 0x00, 0x00, 0x00, 0x53, 0x74, 0x61, 0x74,
  0x65, 0x66, 0x75, 0x6c, 0x50, 0x61, 0x72, 0x74, 0x69, 0x74, 0x69, 0x6f,
  0x6e, 0x65, 0x64, 0x43, 0x61, 0x6c, 0x6c, 0x3a, 0x30, 0x00, 0x00, 0x00,
  0x02, 0x00, 0x00, 0x00, 0x01, 0x00, 0x00, 0x00, 0x0c, 0x00, 0x00, 0x00,
  0xba, 0xfd, 0xff, 0xff, 0x00, 0x00, 0x00, 0x01, 0x18, 0x00, 0x00, 0x00,
  0x20, 0x00, 0x00, 0x00, 0x40, 0x00, 0x00, 0x00, 0x04, 0x00, 0x00, 0x00,
  0x00, 0x00, 0x00, 0x09, 0xa0, 0x00, 0x00, 0x00, 0x02, 0x00, 0x00, 0x00,
  0xff, 0xff, 0xff, 0xff, 0x0c, 0x00, 0x00, 0x00, 0xa4, 0xfd, 0xff, 0xff,
  0x08, 0x00, 0x00, 0x00, 0x14, 0x00, 0x00, 0x00, 0x01, 0x00, 0x00, 0x00,
  0x00, 0x00, 0x00, 0x00, 0x00, 0x00, 0x00, 0x00, 0x00, 0x00, 0x00, 0x00,
  0x01, 0x00, 0x00, 0x00, 0x07, 0x49, 0x0f, 0x3d, 0x66, 0x00, 0x00, 0x00,
  0x6d, 0x6f, 0x64, 0x65, 0x6c, 0x5f, 0x33, 0x34, 0x2f, 0x71, 0x75, 0x61,
  0x6e, 0x74, 0x5f, 0x71, 0x61, 0x74, 0x31, 0x5f, 0x6d, 0x65, 0x74, 0x61,
  0x5f, 0x73, 0x6f, 0x66, 0x74, 0x6d, 0x61, 0x78, 0x5f, 0x31, 0x37, 0x38,
  0x30, 0x30, 0x33, 0x32, 0x34, 0x33, 0x35, 0x2f, 0x4d, 0x61, 0x74, 0x4d,
  0x75, 0x6c, 0x3b, 0x6d, 0x6f, 0x64, 0x65, 0x6c, 0x5f, 0x33, 0x34, 0x2f,
  0x71, 0x75, 0x61, 0x6e, 0x74, 0x5f, 0x71, 0x61, 0x74, 0x31, 0x5f, 0x6d,
  0x65, 0x74, 0x61, 0x5f, 0x73, 0x6f, 0x66, 0x74, 0x6d, 0x61, 0x78, 0x5f,
  0x31, 0x37, 0x38, 0x30, 0x30, 0x33, 0x32, 0x34, 0x33, 0x35, 0x2f, 0x42,
  0x69, 0x61, 0x73, 0x41, 0x64, 0x64, 0x00, 0x00, 0x02, 0x00, 0x00, 0x00,
  0x01, 0x00, 0x00, 0x00, 0x0c, 0x00, 0x00, 0x00, 0x26, 0xff, 0xff, 0xff,
  0x00, 0x00, 0x00, 0x01, 0x14, 0x00, 0x00, 0x00, 0x34, 0x00, 0x00, 0x00,
  0x03, 0x00, 0x00, 0x00, 0x00, 0x00, 0x00, 0x09, 0xb4, 0x00, 0x00, 0x00,
  0x5c, 0xfe, 0xff, 0xff, 0x08, 0x00, 0x00, 0x00, 0x14, 0x00, 0x00, 0x00,
  0x01, 0x00, 0x00, 0x00, 0x00, 0x00, 0x00, 0x00, 0x00, 0x00, 0x00, 0x00,
  0x00, 0x00, 0x00, 0x00, 0x01, 0x00, 0x00, 0x00, 0x1a, 0x5d, 0xbe, 0x3b,
  0x85, 0x00, 0x00, 0x00, 0x6d, 0x6f, 0x64, 0x65, 0x6c, 0x5f, 0x33, 0x34,
  0x2f, 0x71, 0x75, 0x61, 0x6e, 0x74, 0x5f, 0x71, 0x61, 0x74, 0x31, 0x5f,
  0x6d, 0x65, 0x74, 0x61, 0x5f, 0x73, 0x6f, 0x66, 0x74, 0x6d, 0x61, 0x78,
  0x5f, 0x31, 0x37, 0x38, 0x30, 0x30, 0x33, 0x32, 0x34, 0x33, 0x35, 0x2f,
  0x4d, 0x61, 0x74, 0x4d, 0x75, 0x6c, 0x3b, 0x6d, 0x6f, 0x64, 0x65, 0x6c,
  0x5f, 0x33, 0x34, 0x2f, 0x71, 0x75, 0x61, 0x6e, 0x74, 0x5f, 0x71, 0x61,
  0x74, 0x31, 0x5f, 0x6d, 0x65, 0x74, 0x61, 0x5f, 0x73, 0x6f, 0x66, 0x74,
  0x6d, 0x61, 0x78, 0x5f, 0x31, 0x37, 0x38, 0x30, 0x30, 0x33, 0x32, 0x34,
  0x33, 0x35, 0x2f, 0x4c, 0x61, 0x73, 0x74, 0x56, 0x61, 0x6c, 0x75, 0x65,
  0x51, 0x75, 0x61, 0x6e, 0x74, 0x2f, 0x46, 0x61, 0x6b, 0x65, 0x51, 0x75,
  0x61, 0x6e, 0x74, 0x57, 0x69, 0x74, 0x68, 0x4d, 0x69, 0x6e, 0x4d, 0x61,
  0x78, 0x56, 0x61, 0x72, 0x73, 0x00, 0x00, 0x00, 0x02, 0x00, 0x00, 0x00,
  0x0c, 0x00, 0x00, 0x00, 0x24, 0x00, 0x00, 0x00, 0x00, 0x00, 0x16, 0x00,
  0x1c, 0x00, 0x18, 0x00, 0x17, 0x00, 0x10, 0x00, 0x0c, 0x00, 0x08, 0x00,
  0x00, 0x00, 0x00, 0x00, 0x00, 0x00, 0x07, 0x00, 0x16, 0x00, 0x00, 0x00,
  0x00, 0x00, 0x00, 0x01, 0x14, 0x00, 0x00, 0x00, 0x30, 0x00, 0x00, 0x00,
  0x02, 0x00, 0x00, 0x00, 0x00, 0x00, 0x00, 0x02, 0x6c, 0x00, 0x00, 0x00,
  0x4c, 0xff, 0xff, 0xff, 0x08, 0x00, 0x00, 0x00, 0x10, 0x00, 0x00, 0x00,
  0x01, 0x00, 0x00, 0x00, 0x00, 0x00, 0x00, 0x00, 0x00, 0x00, 0x00, 0x00,
  0x01, 0x00, 0x00, 0x00, 0x35, 0x1c, 0xbf, 0x37, 0x42, 0x00, 0x00, 0x00,
  0x6d, 0x6f, 0x64, 0x65, 0x6c, 0x5f, 0x33, 0x34, 0x2f, 0x71, 0x75, 0x61,
  0x6e, 0x74, 0x5f, 0x71, 0x61, 0x74, 0x31, 0x5f, 0x6d, 0x65, 0x74, 0x61,
  0x5f, 0x73, 0x6f, 0x66, 0x74, 0x6d, 0x61, 0x78, 0x5f, 0x31, 0x37, 0x38,
  0x30, 0x30, 0x33, 0x32, 0x34, 0x33, 0x35, 0x2f, 0x42, 0x69, 0x61, 0x73,
  0x41, 0x64, 0x64, 0x2f, 0x52, 0x65, 0x61, 0x64, 0x56, 0x61, 0x72, 0x69,
  0x61, 0x62, 0x6c, 0x65, 0x4f, 0x70, 0x00, 0x00, 0x01, 0x00, 0x00, 0x00,
  0x0c, 0x00, 0x00, 0x00, 0x00, 0x00, 0x16, 0x00, 0x20, 0x00, 0x1c, 0x00,
  0x1b, 0x00, 0x14, 0x00, 0x10, 0x00, 0x0c, 0x00, 0x00, 0x00, 0x00, 0x00,
  0x08, 0x00, 0x07, 0x00, 0x16, 0x00, 0x00, 0x00, 0x00, 0x00, 0x00, 0x01,
  0x18, 0x00, 0x00, 0x00, 0x2c, 0x00, 0x00, 0x00, 0x48, 0x00, 0x00, 0x00,
  0x01, 0x00, 0x00, 0x00, 0x00, 0x00, 0x00, 0x09, 0x60, 0x00, 0x00, 0x00,
  0x02, 0x00, 0x00, 0x00, 0xff, 0xff, 0xff, 0xff, 0x24, 0x00, 0x00, 0x00,
  0x0c, 0x00, 0x0c, 0x00, 0x00, 0x00, 0x00, 0x00, 0x08, 0x00, 0x04, 0x00,
  0x0c, 0x00, 0x00, 0x00, 0x08, 0x00, 0x00, 0x00, 0x10, 0x00, 0x00, 0x00,
  0x01, 0x00, 0x00, 0x00, 0x80, 0xff, 0xff, 0xff, 0xff, 0xff, 0xff, 0xff,
  0x01, 0x00, 0x00, 0x00, 0x80, 0x80, 0x80, 0x3b, 0x1c, 0x00, 0x00, 0x00,
  0x73, 0x65, 0x72, 0x76, 0x69, 0x6e, 0x67, 0x5f, 0x64, 0x65, 0x66, 0x61,
  0x75, 0x6c, 0x74, 0x5f, 0x71, 0x61, 0x74, 0x31, 0x5f, 0x69, 0x6e, 0x70,
  0x75, 0x74, 0x3a, 0x30, 0x00, 0x00, 0x00, 0x00, 0x02, 0x00, 0x00, 0x00,
  0x01, 0x00, 0x00, 0x00, 0x24, 0x00, 0x00, 0x00, 0x02, 0x00, 0x00, 0x00,
  0x24, 0x00, 0x00, 0x00, 0x04, 0x00, 0x00, 0x00, 0xf0, 0xff, 0xff, 0xff,
  0x19, 0x00, 0x00, 0x00, 0x02, 0x00, 0x00, 0x00, 0x00, 0x00, 0x00, 0x19,
  0x0c, 0x00, 0x10, 0x00, 0x0f, 0x00, 0x00, 0x00, 0x08, 0x00, 0x04, 0x00,
  0x0c, 0x00, 0x00, 0x00, 0x09, 0x00, 0x00, 0x00, 0x04, 0x00, 0x00, 0x00,
  0x00, 0x00, 0x00, 0x09
};
unsigned int stacked_meta_clf_pruned_qat_int8_tflite_len = 2176;
